memory_initialization_radix=2;
memory_initialization_vector=
11101110010010011001110110100000011011010101100011111010010010101111011000110100010001011110011110001011110000001011000101110110100111100000010101001001101101101111000110110001100010011000001101000010101001000010000100010010101011010101100110110001000001111011011010011111001111000001010111111111000011100100001110100011101011110110111111001111100101111110011100000101111000101011001001000010001001001110001000010001010001011000000101010101110000101011011110111000101010001000101110001001011011000011100101011110,
00110110100101000011111110110110010000010000001110110101001111111111001000110110110000111111011001011011100000010101010001000100101111000010111011100111011010100110001010111010111111100000110110011010110101010000111000010111001011011110001110111101010000000001001010101000100100100001100011000011101010000111011010110001110101000000100100101010011001001011010001111101110100001001001000110110110101011110011100010001100100100101011001111110001100111011100101111001011100010010100000111111001110010111111100010000,
10000010100001100110110100000001100111010111010001101001010000011011101111100001010110110100001001001001011001011010010000111101000101000110111101111010101100001111011100110100101101101011000111001001001111000111000011011011111000110111011101010011000001100011001000011000111010001001011010110000111011010110110000100010101110111110110010001010111101010101110000100000001111100000011000010001101001010110110011101111011000001101001110111001000011101111111000111111101011011011100010010101110110110111000111001011,
01000001011010101100111010111110110011101101101100101101001111000001000001100000110100000101111010010001111100100001110101111111101110100100110111111110100001000111101110010011110011100100110010000101001101011111101010000010111010111011110111000000001001010001001100100111000110111111010010110001000011100101110111100100101101110101000001011011101000101110000111010100001010000010010001000010100010111011110011000011111110110000111010110111000100100100000111011110000000011110011010011010010011101001000000010010,
00100011101110001110100001111010011010111111001011110111011000101100000100010001010100001100010000011001000101101011001111100110110111100011100011011000110101100110100010111101100110111011101100010111110111110000111111111010111010111111101110110100010011111010101001100011000000011011100111010001101000101000100100100000100111001010001101101100111111001011011111110110000000011000000101100101101101010110111111101010110100101010110001111111000001110000000101011001111100001000101101101010100101111011000000001000,
10100101110000010100101001100000010010011101011100010110000100111001001101110101111011101001000011010000111000100100010010110100000100001001100011010001100111000001011000011101010101100101110011001001100010110000001101100101000010011111000000101001110110001100100100110001011100001111110011101000111001101111111011110100101000100001100110011101110000110110110010011011000011100001101000010101100100000111010110010100010000110110000100001000000011101101000010001001011010001101000110010010010000010000011111101101,
00101100101010101010011100001111010101110100100011000111010010110110010110000110011100010010010111010011010100110110011111011110011111100110010001001111101001001000111101010010110101110100100000000100100001100101101101101010100001010000010101001001001100011011010101001100100100100110111110101100001010010000010011100110001011100111110010010000101110010110110111011101101100110010110101100001001000111110110111001001100101100001111010010011111000100001111111011010001110000101001100111110001011001100111110110100,
11001111101110100111101101111101110010110000110110110001100010100110101000000000000110001011011001100011010101010000110101011110111100101100110111110011110011101100010110110010001000110011111001111000111101110010011100110101000011110000110110000001111011000011101101010100111100101010001110000010111011111011111000110000010010100100011001110100111011010000100100111001011100111011100000100110001001010111001111101000010001001001111000010111001010111100011100101110010001000000010111000100001010101010110010100101,
11001101011011010001100010000111101001000100110111011100000011001111000100111000011010000100101101010111100101010101010101011110000110001100111000000100000100001010010110011111001110101010010111101110110001011001001000011100110000011001110011001100011011111001110111001000010101010001100110110001011010110100000001110110000000101010001110000100101001010111001110010110000001101000110101100001001000101010111101001110101101011001100010110110111111100111001000011010110101000000010110110111111101101010101001001011,
00010101000001011001111011011111001101011110001001101100011001010000010110001111001011101011100011001010001101001010011001011110110111001110110010100110101010000101101101111011111000010111000011000011010010000101110011001001000001110000011001111001011100000101010010010011101111000000111110111001011001010101010110100011001001000010100110000111100110111000011000010100111101000000100101110010000101001011011100100100000001100100001110000011101010111010100010101110100011010011001000001000000111011010000100001110;
